TRT-9200-EntropyCalibration2
numerical_input: 3de5d364
bot_mlp_0.output: 3d827f8d
bot_mlp_0.relu.output: 3d85d218
bot_mlp_1.output: 3d57173b
bot_mlp_1.relu.output: 3d55517f
bot_mlp_2.output: 3c30b3d5
bot_mlp_2.relu.output: 3c30b3d5
squeeze_dense.output: 3c30b3d5
dlrmv2_embedding_lookup.output: 3c8adc96
interaction_in.output: 3c8adc96
interaction.vx_0.output: 3cea029a
interaction.wvx_0.output: 3dbc34e4
interaction.left_term_0.output: 3d0de7ce
interaction.out_0.output: 3ca34f0a
interaction.vx_1.output: 3ca7cbf5
interaction.wvx_1.output: 3d3cafa3
interaction.left_term_1.output: 3c8045ee
interaction.out_1.output: 3d1fbbc1
interaction.vx_2.output: 3cd1d3ea
interaction.wvx_2.output: 3d021d2a
interaction.left_term_2.output: 3ce26ccc
interaction.out_2.output: 3d2b6e99
top_mlp_0.output: 3d21c29d
top_mlp_0.relu.output: 3d28036f
top_mlp_1.output: 3da23c69
top_mlp_1.relu.output: 3d8f6e07
top_mlp_2.output: 3d15d40a
top_mlp_2.relu.output: 3d074eb7
top_mlp_3.output: 3d39109f
top_mlp_3.relu.output: 3d4fa514
final_linear.output: 3dcaa1e4
sigmoid.output: 3ba745c3
